{"merges":[["e","r"],["e","n"],["o","r"],["i","n"],["a","n"],["e","t"],["s","t"],["o","n"],["h","e"],["a","r"],["a","l"],["e","d"],["e","l"],["e","s"],["o","m"],["in","g"],["a","t"],["▁o","g"],["Ã","¥"],["▁t","he"],["n","d"],["i","c"],["i","t"],["i","l"],["u","s"],["r","e"],["▁i","n"],["Ã","¸"],["i","g"],["▁o","f"],["l","e"],["a","s"],["l","o"],["▁a","nd"],["i","s"],["▁f","or"],["en","t"],["r","a"],["i","k"],["▁m","us"],["i","on"],["▁s","om"],["s","lo"],["▁a","v"],["i","d"],["r","o"],["▁O","slo"],["o","t"],["k","e"],["▁=","="],["▁s","t"],["o","l"],["u","r"],["▁mus","ic"],["u","n"],["er","e"],["a","m"],["▁t","il"],["v","er"],["i","st"],["e","g"],["t","e"],["▁e","r"],["▁e","n"],["t","er"],["▁b","y"],["▁t","o"],["u","l"],["e","st"],["r","u"],["Ã¸","r"],["▁p","Ã¥"],["▁==","="],["▁Ã","¥"],["u","t"],["d","e"],["i","v"],["l","er"],["g","e"],["er","s"],["en","s"],["en","e"],["an","d"],["▁t","h"],["c","h"],["e","m"],["▁m","ed"],["▁d","et"],["i","r"],["p","p"],["n","ing"],["l","ig"],["n","e"],["▁a","n"],["d","er"],["▁i","s"],["▁h","ar"],["al","l"],["▁u","t"],["ik","k"],["Ã","¦"],["0","0"],["a","g"],["▁o","r"],["▁e","t"],["or","d"],["s","k"],["e","k"],["a","d"],["i","m"],["s","e"],["j","on"],["c","t"],["a","v"],["o","g"],["f","or"],["at","ion"],["▁b","e"],["i","an"],["▁a","s"],["▁1","9"],["a","y"],["▁s","k"],["s",","],["t","h"],["er",","],["an","t"],["▁e","l"],["it","y"],["a","k"],["o","p"],["c","e"],["▁N","or"],["▁T","he"],["er","."],["▁a","l"],["m","ent"],["▁o","m"],["▁K","I"],["▁a","t"],["u","d"],["l","y"],["▁k","an"],["o","s"],["▁f","ra"],["om","m"],["ar","t"],["▁d","e"],["as","s"],["a","p"],["k","s"],["d","el"],["▁in","n"],["▁p","ro"],["Ã¥","r"],["n","et"],["it","h"],["g","er"],["▁el","ler"],["Ã¦","r"],["▁r","e"],["i","f"],["▁b","le"],["▁b","l"],["ra","f"],["▁w","h"],["▁2","0"],["or","t"],["▁m","an"],["en","."],[")",","],["â",""],["u","nd"],["▁d","en"],["k","er"],["om","p"],["▁o","pp"],["▁w","as"],["▁a","r"],["on","g"],["▁a","re"],["u","m"],["k","t"],["b","y"],["▁v","ar"],["g","g"],["▁w","ith"],["o","d"],["et","t"],["es","s"],["▁m","en"],["▁I","n"],["▁g","j"],["st","e"],["s","Ã¥"],["o","lo"],["▁p","l"],["Ã¸","y"],["▁s","p"],["▁c","on"],["▁b","ru"],["o","v"],["an","g"],["o","w"],["er","t"],["og","raf"],["r","Ã¥"],["en",","],["o","k"],["an","s"],["it","t"],["as","jon"],["▁i","t"],["▁p","er"],["b","e"],["▁D","et"],["▁og","sÃ¥"],["▁o","n"],["ot","ograf"],["▁f","r"],["▁s","am"],["o","c"],["i","es"],["for","m"],["at","e"],["▁s","u"],["ar","k"],["el","l"],["olo","g"],["i","a"],["el","ig"],["a","b"],["▁th","at"],["t","t"],["▁n","ot"],["m","p"],["i","p"],["▁c","omp"],["u","g"],["s","."],["Â","»"],["k","ke"],["▁c","ity"],["▁C","h"],["r","ist"],["▁Ã","¸"],["▁o","ver"],["▁M","us"],["il","l"],["ig","h"],[")","."],["er","ing"],["e",","],["l","ass"],["el","s"],["▁in","t"],["▁S","t"],["r","i"],["▁k","un"],["▁Nor","w"],["st","ru"],["an","n"],["▁Â","«"],["e","."],["▁1","8"],["at","ed"],["is","k"],["n","es"],["en","de"],["▁fr","om"],["ic","h"],["▁s","e"],["y",","],["i","al"],["▁p","r"],["y","s"],["is","ke"],["ul","t"],["d","u"],["▁e","x"],["o","st"],["iv","e"],["▁k","omm"],["b","er"],["▁in","c"],["▁i","kke"],["▁h","v"],["▁for","m"],["v","ar"],["rist","ian"],["p","er"],["t","en"],["ol","d"],["▁v","ed"],["▁mus","ikk"],["r","y"],["ing","s"],["▁p","op"],["▁c","h"],["it","ion"],["ic","al"],["i","ver"],["v","ik"],["▁s","y"],["es",","],["et","s"],["i","e"],["▁t","ra"],["â",""],["v","is"],["stru","ment"],["a",","],["j","Ã¸r"],["a","in"],["'","s"],["▁t","id"],["▁r","eg"],["a","c"],["▁l","ig"],["▁bru","k"],["u","st"],["el","t"],["▁A","l"],["1","9"],["▁wh","ich"],["▁v","er"],["▁e","le"],["▁c","o"],["or","e"],["f","er"],["et",","],["▁f","Ã¸r"],["y","r"],["u","re"],["▁et","ter"],["v","e"],["nd","er"],["n","er"],["e","ar"],["▁s","he"],["▁in","strument"],["▁i","nd"],["Ã¦","re"],["el","lig"],["a","st"],["a","."],["▁F","or"],["▁lig","ger"],["▁su","ch"],["er","n"],["a","ge"],["▁s","o"],["▁s","eg"],["▁n","y"],["▁n","o"],["▁h","av"],["▁D","en"],["ov","ed"],["i","en"],["▁u","n"],["▁t","r"],["▁A","k"],["ug","h"],["l","d"],["▁pop","ul"],["▁b","il"],["un","n"],["et","."],["▁pl","ay"],["▁music",","],["▁h","ad"],["all","y"],["▁u","s"],["▁s","ong"],["be","id"],["1","8"],["▁w","ere"],["▁d","er"],["▁d","el"],["▁20","2"],["▁â",""],["▁u","nder"],["▁music","al"],["▁c","ent"],["p","e"],["m","m"],["j","Ã¸"],["at","t"],["▁per","form"],["▁n","e"],["▁f","otograf"],["r","on"],["ik","e"],["▁h","as"],["▁gj","en"],["▁b","et"],["th","er"],["s","l"],["ristian","ia"],["h","us"],["en","er"],["▁inc","l"],["▁f","l"],["p","r"],["el","v"],["▁f","re"],["▁bl","ant"],["▁B","y"],["o","us"],["j","en"],["ist","or"],["ar","d"],["▁kun","st"],["▁comp","os"],["▁komm","un"],["at","er"],["▁Ak","ers"],["s","o"],["ing",","],["i","er"],["▁Norw","ay"],["y","n"],["u","b"],["st","em"],["m","en"],["▁tra","d"],["r","it"],["o","ur"],["o","b"],["in","e"],["by","gg"],["▁and","re"],["Ã¸","k"],["ult","ur"],["h","et"],["ct","ion"],["c","ord"],["▁w","or"],["l","et"],["id","e"],["al","e"],["▁p","art"],["▁m","a"],["▁i","mp"],["s","ke"],["om","e"],["ers","on"],["ek","t"],["at","ur"],["▁h","oved"],["▁d","at"],["▁an","net"],["▁2","00"],["t","id"],["iver","s"],["ik","t"],["es","."],["el","se"],["▁s","l"],["▁men","nes"],["▁int","ellig"],["▁a","d"],["s","p"],["rÃ¥","d"],["q","u"],["n","om"],["lig","e"],["l","ing"],["il","d"],["al","t"],["▁Ã¥","r"],["▁s","ing"],["▁al","so"],["ol","k"],["in","d"],["ic","e"],["f","Ã¸r"],["▁g","r"],["▁bruk","es"],["▁ar","t"],["b","o"],["▁s","Ã¥"],["▁20","1"],["t","all"],["st","ad"],["m","er"],["▁st","ud"],["▁s","h"],["▁man","ge"],["▁m","ot"],["▁inn","en"],["▁hav","e"],["▁e","ks"],["▁b","es"],["▁Mus","ic"],["▁t","im"],["▁s","c"],["▁by","g"],["▁D","e"],["▁===","="],["y","p"],["ow","n"],["it","ies"],["b","an"],["▁m","er"],["▁al","l"],["en","d"],["as","k"],["am","e"],["▁the","ir"],["▁h","j"],["▁fre","m"],["▁d","u"],["▁d","is"],["▁Oslo","."],["▁0","00"],["u","ro"],["r","ed"],["p","ort"],["l","and"],["an","ce"],["▁t","ek"],["▁t","e"],["▁st","r"],["▁n","or"],["▁c","lass"],["h","old"],["b","or"],["▁l","ar"],["▁l","and"],["▁intellig","ens"],["▁fl","ere"],["▁b","eg"],["ru","m"],["g","en"],["eg","ian"],["▁p","erson"],["▁k","on"],["▁incl","ud"],["▁b","est"],["Ã¸","n"],["le","gg"],["l","es"],["id","en"],["▁Ã¸","st"],["▁st","y"],["▁r","ek"],["▁m","Ã¥"],["▁Norw","egian"],["▁G","r"],["un","t"],["sk","ap"],["el","le"],["▁ut","vik"],["▁o","ther"],["▁f","in"],["▁e","v"],["▁a","ut"],["p","t"],["il","le"],["e","um"],["ber","g"],["am","p"],["O","R"],["▁r","es"],["▁m","el"],["▁l","e"],["▁ar","beid"],["▁T","h"],["▁Ch","ristiania"],["▁1","6"],["v","el"],["s","s"],["r","ic"],["o",","],["is","jon"],["g","ra"],["er","te"],["em","p"],["ask","in"],["0","-"],["▁v","Ã¦re"],["▁j","eg"],["▁h","er"],["▁gjen","nom"],["▁c","omm"],["▁a","c"],["▁A","r"],["o","ver"],["ar","y"],["a","z"],["▁st","Ã¸r"],["▁re","cord"],["▁m","ost"],["▁m","o"],["▁k","j"],["▁h","istor"],["▁f","e"],["▁by","en"],["▁N","OR"],["▁E","uro"],["st","r"],["s","er"],["m","us"],["es","ent"],["am","le"],["▁no","e"],["▁had","de"],["▁b","u"],["▁NOR","A"],["u","al"],["k","k"],["it","al"],["f","otograf"],["f","f"],["er","er"],["av","n"],["▁sk","al"],["▁m","ore"],["▁k","n"],["▁con","t"],["▁b","ut"],["Ã¸","re"],["Ã¸","l"],["Ã¦r","t"],["ul","d"],["t","ter"],["o","le"],["n","en"],["ks","jon"],["▁tid","lig"],["▁s","m"],["▁s","ent"],["▁l","ang"],["▁d","ag"],["▁cent","ur"],["▁c","an"],["▁Nor","ge"],["▁19","9"],["n","olog"],["m","on"],["m","in"],["g","es"],["f","at"],["en","g"],["el","e"],["ation","al"],["▁th","is"],["▁st","or"],["▁pro","du"],["▁mel","od"],["▁by","del"],["y","tt"],["v","al"],["r","et"],["igh","t"],["2","0"],["▁so","und"],["▁of","f"],["▁g","ener"],["▁Akers","hus"],["y","d"],["v","in"],["o","ugh"],["j","er"],["it","et"],["if","t"],["i","z"],["i","re"],["i","b"],["ene","."],["el","y"],["a","ch"],["M","E"],["▁of","te"],["▁o","ut"],["▁m","ens"],["▁it","s"],["▁b","r"],["▁N","ord"],["▁H","E"],["s","y"],["s","h"],["re","v"],["on","om"],["m","ark"],["l","ag"],["el","d"],["c","he"],["an","ge"],["▁Â","°"],["▁us","ed"],["▁trad","ition"],["▁en","n"],["▁d","es"],["u","p"],["tall","et"],["p","l"],["k","elig"],["it","e"],["il","t"],["i","et"],["00","-"],["▁man","y"],["▁m","et"],["▁hv","or"],["▁class","ical"],["▁b","ar"],["▁HE","L"],["▁HEL","ME"],["▁HELME","R"],["▁Det","te"],["▁A","ker"],["st","er"],["r","ing"],["p","h"],["ist","r"],["ig","n"],["g","et"],["ess","ion"],["▁â",""],["▁Ã",""],["▁v","il"],["▁of","ten"],["▁o","ne"],["▁d","o"],["▁co","unt"],["▁b","as"],["▁an","al"],["▁A","n"],["▁(","18"],["â","19"],["r","al"],["olog","y"],["ol","le"],["o","pp"],["ning","en"],["k","l"],["j","or"],["if","ic"],["h","er"],["f","t"],["ell","om"],["0","."],["▁n","ord"],["▁music","."],["▁ele","ment"],["â",""],["r","ett"],["ot","o"],["m","e"],["k",","],["els","en"],["ar","l"],["▁â",""],["▁v","est"],["▁v","an"],["▁s","in"],["▁popul","ar"],["▁ne","w"],["▁m","ellom"],["▁l","ag"],["▁ind","ust"],["▁fÃ¸r","ste"],["▁be","c"],["▁J","o"],["s","en"],["ning","er"],["j","e"],["if","fer"],["i",","],["fat","ter"],["est","ern"],["az","z"],["▁ut","en"],["▁sy","stem"],["▁som","e"],["▁rek","ke"],["▁l","ist"],["▁for","sk"],["▁U","n"],["▁NORA","."],["un","st"],["s","var"],["ro","vis"],["re","e"],["ol","l"],["g","an"],["e","p"],["an","u"],["ak","t"],["▁m","e"],["▁m","ark"],["▁g","Ã¥r"],["▁c","re"],["▁KI","-"],["▁HELMER","."],["ig","e"],["iffer","ent"],["h","on"],["ers",","],["ent","s"],["ac","k"],["▁u","p"],["▁sam","men"],["▁n","Ã¥"],["▁m","est"],["▁in","ter"],["▁hj","el"],["▁f","ly"],["▁con","c"],["▁anal","ys"],["▁B","jÃ¸r"],["▁(","bor"],["ub","l"],["rÃ¥","der"],["ing","."],["ed","e"],["1","."],["▁Ã","st"],["▁v","ir"],["▁t","yp"],["▁t","w"],["▁t","re"],["▁r","und"],["▁p","ie"],["▁o","per"],["▁ny","e"],["▁m","il"],["▁h","ver"],["▁for","b"],["▁f","ir"],["▁bl","ir"],["▁bil","der"],["▁b","and"],["▁B","l"],["▁(bor","n"],["▁(","19"],["y","e"],["u","de"],["st","it"],["st","ed"],["m","Ã¥"],["m","o"],["ing","en"],["ens","k"],["▁wor","ld"],["▁th","ere"],["▁t","a"],["▁st","at"],["▁s","er"],["▁rund","t"],["▁pro","f"],["▁music","ian"],["▁kunst","ig"],["▁h","Ã¸y"],["▁f","ikk"],["▁d","ifferent"],["▁d","a"],["▁by","gg"],["▁bru","ker"],["▁bl","itt"],["▁a","ct"],["▁P","Ã¥"],["sk","ol"],["om","en"],["l","l"],["h","y"],["g","r"],["c","es"],["▁th","an"],["▁st","ore"],["▁sk","ap"],["▁p","ol"],["▁l","ys"],["▁l","oc"],["▁l","ike"],["▁j","azz"],["▁d","own"],["▁d","eg"],["▁bu","ild"],["▁be","h"],["▁N","e"],["▁I","nd"],["▁1","7"],["ur","ing"],["rÃ¥d","et"],["ro","und"],["o","und"],["o","u"],["le",","],["ion","s"],["i","ent"],["g","."],["f","l"],["en","ce"],["b","il"],["av","net"],["at","ive"],["2","4"],["▁un","ivers"],["▁tidlig","ere"],["▁stÃ¸r","ste"],["▁or","gan"],["▁kj","ent"],["▁k","m"],["▁int","o"],["▁imp","rovis"],["▁h","and"],["▁be","en"],["▁Oslo","s"],["▁Euro","pe"],["y","."],["ter",","],["st","Ã¥"],["ro","ugh"],["k","ant"],["igh","et"],["ic","ip"],["i","od"],["i","."],["f","oto"],["ent","er"],["emp","el"],["d","en"],["at","iv"],["an","k"],["▁ver","y"],["▁tr","ans"],["▁t","on"],["▁su","b"],["▁s","iden"],["▁r","ed"],["▁popul","ation"],["▁opp","d"],["▁m","id"],["▁m","ay"],["▁l","Ã¦r"],["▁l","u"],["▁k","e"],["▁h","igh"],["▁h","en"],["▁f","Ã¥"],["▁f","il"],["▁d","ist"],["▁c","ultur"],["▁by","ens"],["▁Jo","h"],["▁E","n"],["▁By","del"],["on","s"],["ol","der"],["m","an"],["in","n"],["ic","s"],["est","e"],["at","te"],["00","0"],["▁w","ell"],["▁v","Ã¦rt"],["▁th","rough"],["▁s","elv"],["▁pro","gra"],["▁pl","an"],["▁m","eg"],["▁kun","ne"],["▁includ","ing"],["▁h","a"],["▁f","est"],["▁ele","ct"],["▁d","ig"],["▁compos","ers"],["▁c","l"],["▁a","bo"],["▁abo","ut"],["▁Un","ivers"],["▁T","or"],["▁S","e"],["▁Oslo",","],["▁I","t"],["▁19","5"],["Â»",","],["x","t"],["v","ir"],["u","ment"],["st","yr"],["st","re"],["pr","esent"],["n","a"],["m","b"],["l","ut"],["il","e"],["fotograf","i"],["al","er"],["al","der"],["▁y","ear"],["▁sl","ik"],["▁p","e"],["▁om","fatter"],["▁not","es"],["▁n","ed"],["▁k","ong"],["▁hoved","stad"],["▁dis","se"],["▁det","te"],["▁E","tter"],["▁19","8"],["▁(","n"],["Ã¸","g"],["Ã¥r","ene"],["Ã¥","k"],["v","en"],["u","ch"],["th","m"],["t","te"],["ri","b"],["r","ik"],["r","es"],["p","ro"],["or","ud"],["on","d"],["ikt","ig"],["ikk",","],["hy","thm"],["f","olk"],["der","n"],["ation",","],["an","ger"],["a","de"],["a","ce"],["1","4"],["▁Â°","C"],["▁til","legg"],["▁s","j"],["▁s","en"],["▁p","ubl"],["▁p","o"],["▁opp","g"],["▁n","Ã¦r"],["▁ma","jor"],["▁m","ak"],["▁lar","ge"],["▁l","en"],["▁kommun","e"],["▁g","en"],["▁fir","st"],["▁f","un"],["▁f","ar"],["▁eks","empel"],["▁conc","ert"],["▁con","s"],["▁comm","on"],["▁W","estern"],["▁S","k"],["▁Nor","ges"],["▁M","ar"],["▁Gr","orud"],["â",""],["ver","k"],["vel","op"],["t",","],["s","et"],["rÃ¥","k"],["re","as"],["re",","],["r","itt"],["j","ord"],["i","ous"],["f","ter"],["f","in"],["du","c"],["ch","o"],["by","g"],["ab","le"],["▁v","i"],["▁ut","g"],["▁the","y"],["▁st","ru"],["▁per","iod"],["▁p","re"],["▁p","it"],["▁or","che"],["▁n","um"],["▁m","in"],["▁gj","Ã¸r"],["▁b","ed"],["▁al","le"],["▁ac","c"],["▁a","g"],["▁Mus","eum"],["▁F","otograf"],["▁A","s"],["▁19","6"],["▁19","4"],["w","e"],["t","r"],["s","v"],["s","j"],["qu","e"],["o","uld"],["lo","w"],["is","h"],["ing","er"],["ig","in"],["i","o"],["i","ed"],["g","jen"],["et","Ã¸y"],["el","f"],["e","c"],["ar","e"],["an","net"],["al","en"],["2","5"],["▁Ã",""],["▁wor","k"],["▁v","is"],["▁tw","o"],["▁sent","rum"],["▁s","im"],["▁r","hythm"],["▁pe","op"],["▁p","ra"],["▁nor","ske"],["▁n","atur"],["▁ke","y"],["▁k","ultur"],["▁k","omp"],["▁instrument","al"],["▁g","re"],["▁g","od"],["▁element","s"],["▁el","d"],["▁ch","ord"],["▁c","ap"],["▁c","all"],["▁bes","lut"],["▁b","or"],["▁as","s"],["▁analys","ere"],["▁G","amle"],["▁1","5"],["un","icip"],["unicip","al"],["u","e"],["re","."],["p","en"],["ot","h"],["oc","k"],["o","ut"],["o","od"],["min","istr"],["form","asjon"],["er","ne"],["▁Ã¸","k"],["▁wh","o"],["▁wh","en"],["▁v","ide"],["▁v","el"],["▁utvik","let"],["▁trad","isjon"],["▁th","ree"],["▁tek","nolog"],["▁sp","es"],["▁s","oc"],["▁r","el"],["▁pie","ce"],["▁p","h"],["▁n","ett"],["▁m","unicipal"],["▁m","askin"],["▁l","itt"],["▁l","in"],["▁in","stit"],["▁hv","a"],["▁h","ow"],["▁g","ate"],["▁fotograf","ering"],["▁de","velop"],["▁de","fin"],["▁centur","y,"],["▁St","ort"],["▁S","am"],["▁Europe","an"],["▁20","th"],["unn","el"],["um","an"],["ul","le"],["s","om"],["l","in"],["l","ed"],["kt","iv"],["iv","al"],["is","ere"],["im","e"],["f","Ã¸l"],["elv","a"],["b","ru"],["b","le"],["b","all"],["ation","s"],["ar","s"],["ar","beid"],["am","er"],["▁w","omen"],["▁ver","d"],["▁v","e"],["▁ut","f"],["▁the","or"],["▁tek","st"],["▁stud","y"],["▁peop","le"],["▁p","ass"],["▁or","igin"],["▁off","ent"],["▁num","ber"],["▁mennes","ker"],["▁mennes","kelig"],["▁m","ain"],["▁lar","g"],["▁l","it"],["▁l","a"],["▁kon","t"],["▁k","om"],["▁indust","ri"],["▁inc","reas"],["▁i","d"],["▁h","older"],["▁g","amle"],["▁ex","p"],["▁e","ff"],["▁den","ne"],["▁d","ok"],["▁dok","ument"],["▁b","en"],["▁V","ik"],["▁R","e"],["▁M","en"],["▁In","nen"],["▁Ch","ristian"],["▁B","ar"],["▁Al","ice"],["▁1","0"],["▁(","e."],["▁(e.","g."],["Ã¸r","s"],["Â»","."],["ytt","et"],["w","n"],["v","ed"],["v","art"],["tt","et"],["ter","."],["t","s"],["t","il"],["t","."],["skol","en"],["or",","],["on","-"],["ob","ot"],["m","s"],["l","Ã¸"],["l","ike"],["ks","om"],["jÃ¸r","etÃ¸y"],["iv","id"],["ist","s"],["ensk","ap"],["ene",","],["elig","e"],["ed","."],["be","bygg"],["at","s"],["anu","ar"],["al","k"],["1","0"],["00-","tallet"],["0-","Ã¥rene"],["▁u","se"],["▁st","ed"],["▁song","s"],["▁sam","t"],["▁s","ur"],["▁s","ine"],["▁om","rÃ¥der"],["▁municipal","ity"],["▁m","ul"],["▁m","ind"],["▁k","ir"],["▁j","anuar"],["▁incl","ude"],["▁in","v"],["▁imp","ort"],["▁h","e"],["▁fin","nes"],["▁f","ound"],["▁ex","amp"],["▁e","nd"],["▁d","uring"],["▁call","ed"],["▁bet","we"],["▁betwe","en"],["▁be","ing"],["▁b","Ã¥"],["▁W","h"],["▁Th","ere"],["▁Mus","ikk"],["▁BjÃ¸r","vik"],["▁1","3"],["ver","al"],["ut","ion"],["ra","d"],["r","ig"],["ord","an"],["og","n"],["o","ok"],["ning","."],["ning",","],["ling","en"],["k","el"],["er","g"],["el","ler"],["cho","ol"],["bygg","ere"],["at","ic"],["at","h"],["at","eg"],["al","ler"],["8","."],["2","."],[".","."],["▁v","iktig"],["▁t","y"],["▁t","ro"],["▁t","er"],["▁sk","ulle"],["▁q","u"],["▁or","d"],["▁m","ill"],["▁l","iv"],["▁komm","er"],["▁k","l"],["▁instrument","s"],["▁inn","byggere"],["▁import","ant"],["▁g","u"],["▁g","ro"],["▁d","ire"],["▁d","em"],["▁co","uld"],["▁cap","ital"],["▁bl","i"],["▁bil","de"],["▁best","Ã¥r"],["▁b","ak"],["▁V","est"],["▁S","p"],["▁M","an"],["▁I","S"],["▁G","re"],["▁A","nd"],["▁19","3"],["â",""],["Ã¸","d"],["w","ay"],["us","s"],["us","e"],["ul","ar"],["u","es"],["tid","ig"],["s","ess"],["rÃ¥","de"],["os","ial"],["on","ome"],["o",")"],["mÃ¥","l"],["ke","berg"],["k","et"],["k","en"],["is","ering"],["is","e"],["fÃ¸r","t"],["ed",","],["del","alder"],["at","ure"],["at","a"],["9","."],["▁y","ou"],["▁tim","e"],["▁the","m"],["▁t","en"],["▁sy","n"],["▁sp","rÃ¥k"],["▁s","itt"],["▁re","present"],["▁prof","ession"],["▁pr","es"],["▁orche","str"],["▁oppd","age"],["▁on","ly"],["▁o","b"],["▁n","avnet"],["▁musician","s"],["▁l","Ã¸"],["▁l","age"],["▁i","m"],["▁hv","ordan"],["▁hjel","p"],["▁g","ir"],["▁fotograf","i"],["▁form","er"],["▁elect","ric"],["▁e","ver"],["▁e","g"],["▁e","duc"],["▁dat","am"],["▁d","ra"],["▁compos","ition"],["▁comm","un"],["▁c","ities"],["▁bec","ame"],["▁at","t"],["▁ad","d"],["▁Univers","ity"],["▁S","c"],["▁K","unst"],["▁In","t"],["▁IS","B"],["▁ISB","N"],["▁Bar","o"],["▁19","7"],["Ã","©"],["xt","ure"],["us","jon"],["st","and"],["r","ift"],["p","lass"],["om","in"],["kt","Ã¸y"],["ist","e"],["is","s"],["in","k"],["ig","r"],["ien","ce"],["ic","ally"],["i","pp"],["ce","pt"],["c","onom"],["ban","en"],["ateg","or"],["at","es"],["am","ent"],["al","g"],["4","."],["0",","],[".",")"],["\"","."],["▁w","rit"],["▁w","ould"],["▁v","id"],["▁tradition","al"],["▁st","yr"],["▁st","re"],["▁sing","ers"],["▁s","olo"],["▁s","i"],["▁r","as"],["▁pol","it"],["▁pit","ch"],["▁not","ation"],["▁melod","y"],["▁mark","ed"],["▁m","uch"],["▁m","on"],["▁larg","est"],["▁land","ets"],["▁l","Ã¥"],["▁k","jÃ¸retÃ¸y"],["▁ind","ivid"],["▁har","mon"],["▁g","i"],["▁f","olk"],["▁e","ra"],["▁count","ry"],["▁bil","d"],["▁beg","yn"],["▁be","folk"],["▁b","oth"],["▁b","ass"],["▁a","pp"],["▁V","ed"],["▁M","ed"],["▁K","ong"],["▁K","arl"],["▁H","er"],["▁H","ar"],["▁H","all"],["▁E","keberg"],["▁(n","o)"],["y","l"],["w","rit"],["w","ard"],["ver",","],["v","id"],["ritt","en"],["r","if"],["r","ess"],["p","ar"],["os","s"],["ning","s"],["ke",","],["k","or"],["k","ker"],["is","m"],["in","t"],["il","ler"],["ikk","er"],["ic","t"],["es","k"],["em","per"],["ekt","iv"],["ct","ure"],["ater","ial"],["ak","er"],["▁Ã¥","p"],["▁wh","ile"],["▁wh","at"],["▁ver","ktÃ¸y"],["▁v","o"],["▁typ","es"],["▁sty","les"],["▁se","veral"],["▁s","osial"],["▁play","ed"],["▁perform","ance"],["▁n","u"],["▁n","ational"],["▁mil","jÃ¸"],["▁loc","ated"],["▁k","re"],["▁h","us"],["▁f","our"],["▁eld","ste"],["▁e","mp"],["▁e","m"],["▁cont","ain"],["▁city","'s"],["▁ad","ministr"],["▁U","t"],["▁Tor","val"],["▁Torval","d"],["▁Th","is"],["▁P","art"],["▁Oslo","'s"],["▁H","ans"],["▁Euro","p"],["▁E","t"],["▁C","lass"],["▁C","ity"],["▁(e.g.",","],["Ã¦r","ing"],["var","d"],["v","and"],["ur","t"],["un","g"],["t","re"],["sy","stem"],["raf","ikk"],["om","ant"],["ne","b"],["lag","t"],["k","d"],["it","enskap"],["ist","er"],["im","al"],["he","d"],["h","a"],["em","b"],["c","ed"],["bil","der"],["b","r"],["at","or"],["al","d"],["6","."],["3","."],["▁w","ritten"],["▁vir","kelig"],["▁van","lig"],["▁v","ill"],["▁ut","t"],["▁u","like"],["▁st","art"],["▁st","and"],["▁sp","ec"],["▁sam","e"],["▁s","lo"],["▁s","et"],["▁s","a"],["▁r","est"],["▁r","elig"],["▁part","s"],["▁p","ian"],["▁o","ld"],["▁n","avn"],["▁n","ame"],["▁mo","del"],["▁mind","re"],["▁ma","de"],["▁m","Ã¸n"],["▁m","ye"],["▁m","ar"],["▁lang","s"],["▁l","eg"],["▁kn","own"],["▁k","or"],["▁k","jÃ¸"],["▁id","ent"],["▁i","de"],["▁histor","y"],["▁h","uman"],["▁h","os"],["▁h","al"],["▁g","over"],["▁for","stÃ¥"],["▁fly","ttet"],["▁ex","pr"],["▁eks","p"],["▁dig","ital"],["▁datam","askin"],["▁bÃ¥","de"],["▁bygg","et"],["▁bru","kt"],["▁br","ann"],["▁bes","k"],["▁are","as"],["▁are","a"],["▁ar","r"],["▁W","or"],["▁O","g"],["▁K","ristiania"],["▁Grorud","d"],["▁F","r"],["▁E","x"],["▁Den","ne"],["▁D","an"],["▁Baro","que"],["▁B","er"],["▁5","0"],["▁1","2"],["Ã¥","d"],["v","a"],["ut","s"],["u","ally"],["th","ough"],["te","k"],["t","he"],["sl","ag"],["sk","ole"],["sh","ip"],["ol","ke"],["ok","al"],["oc","ke"],["n","s"],["n","ment"],["mo","del"],["kt","ur"],["k","te"],["j","ering"],["iz","ed"],["is","in"],["ion",","],["i","um"],["g","Ã¥r"],["g","ang"],["fer","d"],["er","es"],["eg","n"],["c","c"],["bo","ard"],["b","in"],["b","ar"],["av","is"],["at","ing"],["ans","ke"],["a","pp"],["▁Â°","F"],["▁w","ord"],["▁th","ough"],["▁t","ot"],["▁sty","le"],["▁skap","e"],["▁sk","og"],["▁sen","ere"],["▁sam","me"],["▁s","Ã¦r"],["▁s","it"],["▁s","ens"],["▁s","chool"],["▁red","us"],["▁r","ett"],["▁progra","mm"],["▁profession","al"],["▁pra","ct"],["▁p","ark"],["▁p","ar"],["▁over","v"],["▁oper","a"],["▁n","Ã¥r"],["▁n","on-"],["▁mus","eum"],["▁m","i"],["▁m","aterial"],["▁l","yd"],["▁l","y"],["▁l","ange"],["▁kjent","e"],["▁j","ul"],["▁individ","ual"],["▁ident","if"],["▁gover","nment"],["▁gj","Ã¸re"],["▁g","o"],["▁fil","m"],["▁f","Ã¸l"],["▁f","em"],["▁d","elt"],["▁centur","y"],["▁c","a."],["▁bu","ilt"],["▁bar","e"],["▁b","ro"],["▁b","i"],["▁aut","onome"],["▁al","t"],["▁a","m"],["▁Wor","ld"],["▁St","."],["▁S","ome"],["▁P","ro"],["▁P","ol"],["▁Oslo","-"],["▁Norway",","],["▁Int","ellig"],["▁H","ol"],["▁H","istor"],["▁F","ra"],["▁Class","ical"],["▁Ber","gen"],["▁2","5"],["▁1","."],["▁(","s"],["Ã","¼"],["ver","d"],["v","ad"],["ur","es"],["u","te"],["u","en"],["s","c"],["ru","pp"],["re","p"],["ra","ph"],["omant","ic"],["o","y"],["n","al"],["mus","ikk"],["mp","hon"],["mm","igr"],["m","et"],["l","Ã¦ring"],["jen","est"],["it","ets"],["is","ert"],["im","ate"],["ia",","],["i","ated"],["for","sk"],["f","un"],["ers","."],["ere","."],["els","er"],["ct","ed"],["cord","ing"],["c","ent"],["bor","g"],["b","l"],["ation","."],["asjon","er"],["ann","s"],["all","es"],["ade","m"],["a","ver"],["a","ke"],["O","slo"],["9",","],["7","8"],["\"",","],["▁vide","o"],["▁vid","ere"],["▁van","sk"],["▁tr","en"],["▁til","p"],["▁te","xture"],["▁t","emp"],["▁sy","kd"],["▁st","ill"],["▁st","ad"],["▁song","writ"],["▁sk","j"],["▁s","Ã¸"],["▁s","ett"],["▁r","et"],["▁r","em"],["▁produ","ksjon"],["▁person","er"],["▁perform","ed"],["▁o","wn"],["▁mÃ¥","l"],["▁mo","der"],["▁mid","delalder"],["▁me","an"],["▁litt","le"],["▁list","en"],["▁len","ger"],["▁l","ear"],["▁kn","yttet"],["▁k","vin"],["▁j","o"],["▁instrument","s,"],["▁in","fl"],["▁i","f"],["▁hver","t"],["▁h","el"],["▁h","ear"],["▁gr","unn"],["▁form","s"],["▁for","uts"],["▁f","le"],["▁f","i"],["▁ev","ol"],["▁e","conom"],["▁e","ar"],["▁des","c"],["▁del","er"],["▁d","ron"],["▁city","."],["▁ch","ang"],["▁byg","ning"],["▁build","ings"],["▁bet","yd"],["▁bas","ert"],["▁a","round"],["▁a","fter"],["▁R","omantic"],["▁R","ing"],["▁P","h"],["▁O","r"],["▁O","m"],["▁N","ational"],["▁M","id"],["▁M","et"],["▁H","oved"],["▁H","e"],["▁Al","na"],["▁Akers","elva"],["▁A","ut"],["▁202","5"],["▁20","18"],["▁19","th"],["▁18","4"],["▁(","1"],["Ã¸k","k"],["Ã¥","nd"],["y","m"],["w","h"],["vad","r"],["ult","ure"],["ul","l"],["st","id"],["s","ak"],["ry","kk"],["ra","v"],["r","ens"],["p","art"],["ot","ion"],["or","s"],["on",","],["omm","un"],["om","at"],["ol","ig"],["og","raph"],["o","se"],["o","f"],["n","skap"],["mmigr","ant"],["m","est"],["in","ter"],["im","ent"],["ic","s,"],["h","Ã¸g"],["gr","unn"],["g","or"],["em","m"],["else",","],["el","en"],["ek","st"],["e","et"],["d","an"],["ch","ol"],["b","as"],["as",","],["an","se"],["amer","a"],["ak","k"],["▁Ã¸st","kant"],["▁with","in"],["▁w","e"],["▁w","ay"],["▁vest","kant"],["▁us","ing"],["▁trans","port"],["▁the","se"],["▁t","ur"],["▁t","ar"],["▁str","ing"],["▁sl","ut"],["▁sk","rev"],["▁sin","ce"],["▁she","et"],["▁s","v"],["▁s","el"],["▁ras","kt"],["▁r","is"],["▁r","en"],["▁publ","ic"],["▁pro","sess"],["▁pro","p"],["▁pro","ble"],["▁pl","ass"],["▁p","sy"],["▁oppg","aver"],["▁om","rÃ¥d"],["▁o","pt"],["▁o","pen"],["▁ny","tt"],["▁no","en"],["▁musikk",","],["▁mul","ig"],["▁moder","ne"],["▁mill","ion"],["▁men","g"],["▁med","isin"],["▁m","y"],["▁m","at"],["▁l","Ã¦re"],["▁l","ow"],["▁l","ast"],["▁kont","ro"],["▁k","alles"],["▁inn","hold"],["▁includ","es"],["▁in","kl"],["▁in","formasjon"],["▁h","ost"],["▁h","is"],["▁h","elt"],["▁h","eld"],["▁gu","it"],["▁guit","ar"],["▁gro","up"],["▁gr","Ã¸n"],["▁g","ang"],["▁fÃ¥","tt"],["▁frem","st"],["▁fra","m"],["▁forb","ed"],["▁for","s"],["▁for","hold"],["▁fi","eld"],["▁fe","w"],["▁f","er"],["▁ex","pl"],["▁en","erg"],["▁e","st"],["▁dis","c"],["▁det","."],["▁des","ign"],["▁de","c"],["▁dat","a"],["▁cre","ate"],["▁c","ulture"],["▁c","olle"],["▁c","lo"],["▁byg","ninger"],["▁byg","ge"],["▁bydel","en"],["▁by","en."],["▁ben","ytt"],["▁b","us"],["▁b","id"],["▁b","el"],["▁ar","ch"],["▁an","y"],["▁an","svar"],["▁an","s"],["▁an","n"],["▁act","iv"],["▁U","l"],["▁O","l"],["▁Nord","str"],["▁Nordstr","and"],["▁N","ob"],["▁N","asjon"],["▁M","a"],["▁J","a,"],["▁Hol","men"],["▁Holmen","k"],["▁Holmenk","oll"],["▁G","e"],["▁G","ar"],["▁D","is"],["▁B","Ã¦"],["▁B","ry"],["▁A","c"],["▁200","8"],["▁2","1"],["▁19","2"],["▁16","24"],["Ã¸","st"],["y","stem"],["y","del"],["w","in"],["us","en"],["ur","ther"],["ur","ch"],["u","ter"],["te","."],["t","o"],["s","ide"],["ro","g"],["rib","ut"],["r","im"],["r","en"],["our","nal"],["or","ter"],["on","t"],["on","es"],["omm","er"],["o","ot"],["n",","],["m","ed"],["le","v"],["l","en"],["k","jen"],["ist",","],["is","hed"],["in","s"],["ik","s"],["ighet","er"],["ies",","],["ic","es"],["i","qu"],["i","elt"],["h","eng"],["g","iv"],["f","att"],["f","art"],["ens","ive"],["else","."],["c","ient"],["av","e"],["arl","i"],["ag","n"],["ab","ler"],["6",","],["4",","],["3","),"],["0","s,"],["▁Ã¸k","onom"],["▁vansk","elig"],["▁utf","Ã¸re"],["▁th","en"],["▁t","usen"],["▁t","emper"],["▁sÃ¦r","lig"],["▁sy","mphon"],["▁sur","round"],["▁sub","ur"],["▁stÃ¸r","re"],["▁stru","cture"],["▁som","et"],["▁sing","er"],["▁s","Ã¸r"],["▁s","ol"],["▁ris","ik"],["▁res","id"],["▁record","ed"],["▁r","ock"],["▁pr","iv"],["▁pr","esent"],["▁play","ing"],["▁perform","ers"],["▁om","tr"],["▁omtr","ent"],["▁om","rÃ¥det"],["▁om","k"],["▁offent","lig"],["▁not","e"],["▁n","ok"],["▁n","am"],["▁mÃ¸n","stre"],["▁mo","dern"],["▁meng","der"],["▁ma","ke"],["▁kontro","ll"],["▁key","board"],["▁k","art"],["▁it",","],["▁inn","vand"],["▁inkl","u"],["▁inklu","der"],["▁increas","ing"],["▁i","mmigrant"],["▁h","ous"],["▁h","ome"],["▁h","ers"],["▁hers","elf"],["▁h","ele"],["▁h","an"],["▁gj","or"],["▁gjor","de"],["▁g","rad"],["▁fÃ¸r","er"],["▁for","ts"],["▁far","ge"],["▁f","Ã¥r"],["▁f","jord"],["▁f","ire"],["▁ever","y"],["▁ev","en"],["▁e","ach"],["▁d","ek"],["▁cont","in"],["▁compos","er"],["▁cl","imate"],["▁c","as"],["▁build","ing"],["▁bet","ydel"],["▁benytt","es"],["▁band","s"],["▁b","o"],["▁a","b"],["▁Vik","ing"],["▁P","er"],["▁Oslo","f"],["▁Nor","sk"],["▁Nob","el"],["▁M","un"],["▁M","o"],["▁L","e"],["▁Grorudd","alen"],["▁D","ag"],["▁By","g"],["▁Ar","k"],["▁A","v"],["▁A","f"],["▁2","7"],["▁18","9"],["▁18","7"],["▁18","14"],["▁18","00-tallet"],["â","20"],["Ã¸r","er"],["Â","²"],["z","e"],["y","se"],["w","or"],["ve","ien"],["ve","i"],["v","n"],["v","et"],["v","es"],["us","ic"],["u","elle"],["t","ak"],["st","ra"],["ser","v"],["r","inn"],["r","er"],["r","el"],["r","ban"],["pe","ct"],["or","."],["op","h"],["on","e"],["ocke","y"],["m","il"],["lig","h"],["l","Ã¸kk"],["ksom","het"],["k","es"],["ity",","],["it","ive"],["ist","ikk"],["ip","ul"],["in","a"],["il","os"],["id","er"],["ha","ug"],["h","ol"],["h","avn"],["h","and"],["f","unn"],["f","on"],["et","th"],["et","er"],["en","ge"],["e","ct"],["ction","s"],["c","k"],["b","en"],["an","c"],["am","m"],["al",","],["a","der"],["1","5"],["1",","],["-","d"],["▁Ã¸","n"],["▁Ã¥p","net"],["▁wh","ere"],["▁w","on"],["▁v","ers"],["▁utg","jÃ¸r"],["▁typ","ically"],["▁tot","al"],["▁tim","b"],["▁til","b"],["▁the","at"],["▁th","ink"],["▁te","ch"],["▁subur","b"],["▁sty","l"],["▁st","Ã¥r"],["▁st","ort"],["▁sp","Ã¸rs"],["▁somet","im"],["▁soc","ial"],["▁sm","Ã¥"],["▁sm","all"],["▁slut","ten"],["▁sk","r"],["▁sk","ol"],["▁se","c"],["▁sam","tidig"],["▁s","var"],["▁s","ign"],["▁relig","ious"],["▁reg","ion"],["▁re","port"],["▁r","ole"],["▁p","ort"],["▁opp","rinn"],["▁meg","et"],["▁man","ipul"],["▁lys","fÃ¸l"],["▁lu","ft"],["▁l","og"],["▁l","ik"],["▁l","ed"],["▁kommun","en"],["▁km","Â²"],["▁km","2"],["▁instit","usjon"],["▁includ","ed"],["▁foruts","i"],["▁for","d"],["▁fest","ival"],["▁fe","il"],["▁f","ell"],["▁examp","le,"],["▁en","s"],["▁em","otion"],["▁educ","ation"],["▁dig","it"],["▁d","omin"],["▁comp","an"],["▁cent","re"],["▁c","rit"],["▁bro","ad"],["▁bl","u"],["▁beh","and"],["▁bed","re"],["▁b","olig"],["▁aut","h"],["▁art","ist"],["▁an","t"],["▁al","gor"],["▁U","S"],["▁T","ron"],["▁Stort","ing"],["▁St","at"],["▁P","r"],["▁O","n"],["▁Ne","i,"],["▁N","Ã¥"],["▁Mus","ical"],["▁Mun","ch"],["▁Kong","s"],["▁KI",","],["▁K","vadr"],["▁Kvadr","atur"],["▁K","or"],["▁K","n"],["▁J","anu"],["▁Janu","ary"],["▁In","ter"],["▁I","V"],["▁Hall","vard"],["▁H","Ã¥k"],["▁HÃ¥k","on"],["▁H","a"],["▁Gr","Ã¼"],["▁GrÃ¼","ner"],["▁GrÃ¼ner","lÃ¸kk"],["▁G","er"],["▁Ger","man"],["▁F","rog"],["▁E","l"],["▁Ch","amp"],["▁C","omm"],["▁BÃ¦","rum"],["▁Byg","d"],["▁Bygd","Ã¸y"],["▁And","re"],["▁A","m"],["▁19","0"],["▁1","00"],["▁1",","],["▁(","K"],["â","18"],["Ã¸","ver"],["Ã¥","ende"],["un","e"],["system","er"],["sp","ir"],["s","el"],["rim","in"],["ri","ed"],["r","as"],["p","s"],["ov","e"],["omp","an"],["ning","st"],["model","ler"],["ith","er"],["it","ekt"],["in","du"],["ies","."],["id","ler"],["i","er."],["i","er,"],["i","ally"],["he","im"],["g","ener"],["fÃ¸r","ing"],["f","ra"],["es","jon"],["ere","mon"],["ere",","],["er","k"],["ent","ion"],["e","ver,"],["byg","ning"],["by","en"],["bru","k"],["at","ret"],["at","en"],["an","al"],["al","te"],["al","s"],["al","es"],["al","b"],["abler","t"],["ab","l"],["a","il"],["a","f"],["a","ct"],["2",","],["▁Ã¸","y"],["▁vanlig","vis"],["▁v","et"],["▁v","ann"],["▁v","alg"],["▁utvik","le"],["▁uten","for"],["▁ut","dan"],["▁us","es"],["▁tr","ed"],["▁to","p"],["▁tim","e,"],["▁though","t"],["▁th","ose"],["▁teknolog","i"],["▁t","ett"],["▁t","eg"],["▁t","ak"],["▁str","Ã¸k"],["▁st","ift"],["▁spÃ¸rs","mÃ¥l"],["▁spes","ial"],["▁sometim","es"],["▁sk","ip"],["▁sing","le"],["▁sim","p"],["▁sent","ral"],["▁se","ction"],["▁sc","ale"],["▁s","n"],["▁s","ang"],["▁reg","ul"],["▁reg","ler"],["▁reg","istr"],["▁record","ing"],["▁re","fer"],["▁re","ad"],["▁r","Ã¥d"],["▁r","om"],["▁r","ing"],["▁r","ad"],["▁pÃ¥","vir"],["▁pract","ice"],["▁out","side"],["▁om","rÃ¥de"],["▁offent","lige"],["▁o","cc"],["▁nor","th"],["▁music","\""],["▁mot","iv"],["▁mil","it"],["▁mak","ing"],["▁lÃ¦r","ing"],["▁lag","er"],["▁l","ook"],["▁kun","nskap"],["▁komp","on"],["▁k","ar"],["▁k","amera"],["▁j","ournal"],["▁infl","u"],["▁in","ne"],["▁in","gen"],["▁i","gjen"],["▁hoved","sak"],["▁hav","ing"],["▁hal","v"],["▁gr","ens"],["▁gener","ally"],["▁g","rupp"],["▁g","iv"],["▁form",","],["▁forb","in"],["▁forbin","del"],["▁fle","ste"],["▁f","urther"],["▁f","ig"],["▁f","ast"],["▁expl","or"],["▁et","h"],["▁en","g"],["▁eksp","on"],["▁eg","ne"],["▁e","get"],["▁dokument","asjon"],["▁dire","ct"],["▁develop","ment"],["▁develop","ed"],["▁der","for"],["▁d","r"],["▁d","iv"],["▁count","y"],["▁comp","let"],["▁ch","ild"],["▁by","styr"],["▁bi","olog"],["▁band","s,"],["▁b","ack"],["▁ass","oc"],["▁assoc","iated"],["▁are","al"],["▁algor","it"],["▁al","d"],["▁ag","ain"],["▁acc","ompan"],["▁acc","ess"],["▁a","ud"],["▁U","nder"],["▁U","i"],["▁Tron","d"],["▁Trond","heim"],["▁T","e"],["▁P","ark"],["▁O","ther"],["▁O","per"],["▁Norway","."],["▁Nor","ske"],["▁N","o"],["▁L","ond"],["▁L","ang"],["▁Intellig","ence"],["▁H","ow"],["▁G","ener"],["▁For","svar"],["▁F","red"],["▁Dis","se"],["▁D","ra"],["▁Champ","ion"],["▁C","ent"],["▁Bl","ant"],["▁BjÃ¸rvik","a"],["▁B","ru"],["▁Ar","t"],["▁Al","n"],["▁19","25"],["▁18","5"],["▁1","4"],["▁1","1"],["▁(","H"],["▁(","A"],["Â","«"],["yn","am"],["ver","s"],["ver","n"],["ut","vik"],["ur","s"],["und","er"],["un","c"],["ul","pt"],["u","z"],["te","mp"],["s","att"],["ru","d"],["raf","t"],["r","Ã¸k"],["p","ed"],["ot","her"],["os","isjon"],["olle","ktiv"],["ogn","itive"],["o","der"],["n","ess"],["mus","ic"],["le","g"],["l","ine"],["in","es"],["in","e."],["in","c"],["ific","ial"],["ien","d"],["het","er"],["he","l"],["h","istor"],["h","ic"],["g","jÃ¸r"],["g","i"],["fÃ¸r","er"],["f","ar"],["et","ter"],["en",")"],["el","em"],["el","and"],["ek","ter"],["ek","s"],["eg","Ã¥r"],["ear","ch"],["de",","],["d","us"],["d","le"],["d","et"],["br","ann"],["bebygg","elsen"],["b","ert"],["at","her"],["an","legg"],["all","et"],["aler","obot"],["a","use"],["a","ur"],["W","estern"],["N","or"],["I","N"],["9","0"],["9","),"],["8",","],["7","0"],["7","."],["7",","],["7","),"],["3","0"],["▁Â°F",")"],["▁y","tre"],["▁w","ill"],["▁w","ent"],["▁vir","t"],["▁vill","a"],["▁verd","ens"],["▁ve","hic"],["▁var","i"],["▁v","ok"],["▁v","ille"],["▁v","ia"],["▁v","ekst"],["▁ton","e"],["▁tilb","ake"],["▁theor","y"],["▁tech","n"],["▁t","jenest"],["▁t","i"],["▁stud","ent"],["▁sp","ille"],["▁sosial","e"],["▁sing","ing"],["▁sign","ific"],["▁signific","ant"],["▁sh","ow"],["▁ser","v"],["▁se","e"],["▁sammen","heng"],["▁s","on"],["▁s","ide"],["▁s","ekt"],["▁risik","o"],["▁rest","aur"],["▁res","ult"],["▁reg","jering"],["▁re","ist"],["▁r","obot"],["▁r","o"],["▁r","iver"],["▁r","ank"],["▁prof","esjon"],["▁produ","c"],["▁proble","m"],["▁pro","te"],["▁population","."],["▁p","at"],["▁organ","is"],["▁omk","ring"],["▁om","t"],["▁ob","j"],["▁non-","Western"],["▁n","ow"],["▁music","ology"],["▁million","er"],["▁mennes","k"],["▁m","ult"],["▁m","ag"],["▁lit","en"],["▁lang","u"],["▁lang","t"],["▁l","ong"],["▁l","o"],["▁l","ive"],["▁l","ess"],["▁l","av"],["▁l","ate"],["▁kn","ow"],["▁k","vart"],["▁k","rav"],["▁k","ost"],["▁k","il"],["▁int","ro"],["▁in","spir"],["▁in","form"],["▁improvis","ed"],["▁h","un"],["▁h","old"],["▁gj","ort"],["▁gj","erne"],["▁fr","ed"],["▁fotograf","ier"],["▁forts","att"],["▁forsk","j"],["▁fin","ne"],["▁fin","ans"],["▁f","ol"],["▁f","ler"],["▁er","st"],["▁en","ter"],["▁ele","ver"],["▁eff","ektiv"],["▁dist","in"],["▁desc","rib"],["▁del","en"],["▁d","Ã¸r"],["▁d","yr"],["▁d","ay"],["▁cultur","es"],["▁cultur","al"],["▁common","ly"],["▁ch","o"],["▁cent","ral"],["▁c","ur"],["▁c","ame"],["▁bilder",","],["▁betydel","ig"],["▁best","em"],["▁beslut","ninger"],["▁bes","Ã¸k"],["▁begyn","te"],["▁be","for"],["▁b","ord"],["▁b","lo"],["▁ass","ist"],["▁arr","anger"],["▁arbeid","sp"],["▁arbeidsp","lass"],["▁arbeid","et"],["▁ar","k"],["▁an","nen"],["▁ac","cording"],["▁a","ktiv"],["▁V","Ã¥"],["▁VÃ¥","ler"],["▁VÃ¥ler","eng"],["▁T","-"],["▁St","ov"],["▁S","om"],["▁S","lo"],["▁S","enter"],["▁S","ch"],["▁Oslof","jord"],["▁Oper","a"],["▁Om","rÃ¥det"],["▁Ne","w"],["▁Mar","id"],["▁Man","y"],["▁M","ach"],["▁Lond","on"],["▁Joh","n"],["▁Joh","ans"],["▁I","b"],["▁Hans","haug"],["▁H","Ã¸y"],["▁GrÃ¼nerlÃ¸kk","a"],["▁Gre","ek"],["▁G","ro"],["▁Frog","ner"],["▁F","ur"],["▁F","olke"],["▁E","d"],["▁Dan","mark"],["▁D","ig"],["▁C","on"],["▁C","olle"],["▁B","og"],["▁Af","ric"],["▁A","t"],["▁A","mer"],["▁Amer","ic"],["▁9","78"],["▁201","1"],["▁18","3"],["▁(","Â«"],["▁(","opp"],["▁(opp","lag"],["▁(","20"],["▁(","2"],["â","s"],["Ã¦r","er"],["Ã¥","tt"],["Ã¥","s"],["Ã¥","l"],["y","re"],["v","r"],["v","eg"],["ut","t"],["usic","ology"],["ur","al"],["unc","il"],["ugh","t"],["ug","ust"],["tek","nolog"],["t","ok"],["t","ain"],["s","n"],["s","ett"],["s","els"],["ric","t"],["ri","ze"],["r","om"],["pp","en"],["p","ark"],["or","y"],["op","hon"],["olog","y,"],["oc","us"],["n","er,"],["n","ende"],["n","ational"],["m",","],["ler","ede"],["l","i"],["l","ett"],["l","an"],["l","a"],["kk","et"],["ke","olog"],["k","unst"],["k","j"],["je","ct"],["iver","t"],["ities","."],["itet","et"],["ir","port"],["in","o"],["im","a"],["ill","ing"],["il","y"],["ific","ation"],["idler","tid"],["ic","k"],["ic",","],["ia","."],["i","que"],["i","as"],["gra","mm"],["g","ed"],["fÃ¸l","ge"],["fun","net"],["f","all"],["est","het"],["est","en"],["ering","en"],["ering",","],["er","ap"],["ep","end"],["epend","ent"],["en","a"],["em","ber"],["els","er,"],["c","ess"],["b","ant"],["bant","by"],["b","ack"],["asjon","."],["as","."],["ap","e"],["ann","ed"],["anal","yse"],["an","e"],["ab","ly"],["ab","il"],["a","e"],["P","T"],["C","h"],["?","â"],["8","),"],["5","4"],["5","1"],["3",","],["2","6"],["2","-"],["00-","tall"],["-",","],[")",":"],["!","â"],["▁Ã¸n","sk"],["▁Ã",","],["▁Â«","A"],["▁wor","ks"],["▁won","der"],["▁v","oc"],["▁voc","al"],["▁v","itenskap"],["▁utvik","lingen"],["▁univers","itets"],["▁un","n"],["▁un","ion"],["▁u","rban"],["▁u","nd"],["▁u","b"],["▁tra","in"],["▁tr","ent"],["▁til","gjen"],["▁tilgjen","g"],["▁tid","lige"],["▁th","erap"],["▁temp","o"],["▁tek","n"],["▁te","am"],["▁ta","ke"],["▁t","unnel"],["▁t","ry"],["▁system","er"],["▁sv","Ã¦rt"],["▁su","pp"],["▁str","ong"],["▁sted","er"],["▁stat","lige"],["▁stad","ig"],["▁slo","tt"],["▁skrev","et"],["▁sk","jer"],["▁sj","ang"],["▁sit","u"],["▁sentrum","."],["▁seg","l"],["▁se","en"],["▁sam","arbeid"],["▁sa","id"],["▁s","jÃ¸"],["▁s","id"],["▁s","ele"],["▁s","ay"],["▁restaur","ant"],["▁rel","ation"],["▁rek","l"],["▁reg","nes"],["▁reg","el"],["▁reg","ard"],["▁re","f"],["▁r","it"],["▁priv","ate"],["▁pra","kt"],["▁pr","im"],["▁play","s"],["▁play","ers"],["▁play","er"],["▁pitch",","],["▁pie","ces"],["▁ph","ys"],["▁per","man"],["▁perman","ent"],["▁per","cept"],["▁p","ot"],["▁p","os"],["▁overv","Ã¥"],["▁overvÃ¥","ke"],["▁opt","imal"],["▁o","slo"],["▁not","ated"],["▁nett","verk"],["▁natur","lig"],["▁n","ab"],["▁mus","ik"],["▁met","er"],["▁medisin","ske"],["▁med","ie"],["▁marked","s"],["▁mar","it"],["▁man","us"],["▁m","ist"],["▁lit","er"],["▁lear","n"],["▁le","vel"],["▁l","yr"],["▁l","over"],["▁l","ov"],["▁l","okal"],["▁komp","osisjon"],["▁kir","ke"],["▁k","val"],["▁k","alt"],["▁innvand","r"],["▁innen","for"],["▁ind","ependent"],["▁im","idlertid"],["▁identif","isere"],["▁i","ce"],["▁hv","is"],["▁hoved","k"],["▁hjel","per"],["▁hj","em"],["▁h","ockey"],["▁h","all"],["▁gre","at"],["▁g","itt"],["▁fun","ksjon"],["▁fre","e"],["▁fotograf","isk"],["▁for","v"],["▁for","slag"],["▁for","n"],["▁for","est"],["▁fer","d"],["▁f","yl"],["▁f","ug"],["▁f","ocus"],["▁f","all"],["▁f","al"],["▁expr","ession"],["▁expr","ess"],["▁exp","ensive"],["▁evol","ution"],["▁en","kel"],["▁ele","kt"],["▁eff","ect"],["▁e","gen"],["▁dra","m"],["▁dra","bantby"],["▁dat","a,"],["▁d","ynam"],["▁d","id"],["▁d","ance"],["▁contin","u"],["▁contain","s"],["▁cons","ider"],["▁comp","uter"],["▁city",","],["▁child","ren"],["▁ch","ar"],["▁bru","ke"],["▁bet","yr"],["▁beg","an"],["▁bed","rif"],["▁bec","ause"],["▁be","var"],["▁bas","ed"],["▁bak","grunn"],["▁b","ud"],["▁b","ra"],["▁b","ok"],["▁b","is"],["▁av","er"],["▁aver","age"],["▁aut","omat"],["▁arch","ite"],["▁app","ro"],["▁ans","atte"],["▁an","g"],["▁an","cient"],["▁ald","ri"],["▁al","ong"],["▁administr","ative"],["▁ad","v"],["▁W","ith"],["▁T","o"],["▁T","V"],["▁S","iden"],["▁R","eg"],["▁Part","y"],["▁P","rize"],["▁P","ort"],["▁P","e"],["▁Ol","av"],["▁O","ly"],["▁Oly","mp"],["▁Norge",","],["▁Nord","mark"],["▁N","Ã¥r"],["▁N","R"],["▁NR","K"],["▁L","in"],["▁Kunst","ig"],["▁Kongs","berg"],["▁KI","."],["▁K","ristian"],["▁K","ing"],["▁Ind","ones"],["▁Ind","ian"],["▁Ib","sen"],["▁I","mp"],["▁I","kke"],["▁Holmenkoll","en"],["▁Har","ald"],["▁Gr","Ã¸n"],["▁Gar","der"],["▁Garder","mo"],["▁Gamle","by"],["▁F","ot"],["▁E","r"],["▁Dra","mm"],["▁Den","mark"],["▁D","uring"],["▁D","u"],["▁Colle","ge"],["▁Champion","ship"],["▁Ch","urch"],["▁Ch","rist"],["▁C","op"],["▁Bog","stad"],["▁Bl","in"],["▁Blin","dern"],["▁B","jer"],["▁B","is"],["▁Bis","lett"],["▁Art","ificial"],["▁An","t"],["▁Al","though"],["▁2","3"],["▁(","en)"],["▁(","M"],["Ã¸","v"],["Ã¸","mm"],["Ã¸","ker"],["Ã","¶"],["",""],["v","ann"],["ur","g"],["unnel","en"],["un","kt"],["ste","in"],["stad","en"],["st","uen"],["st",","],["skap","s"],["s","pe"],["s","am"],["s","),"],["ro","ss"],["ri","ver"],["re","present"],["r","ikk"],["r","ight"],["p","et"],["p","erson"],["ot","t"],["or","g"],["om","rÃ¥det"],["om","rÃ¥der"],["oc","k,"],["o","-"],["n","or"],["mb","ol"],["lig","ste"],["le","x"],["le","mm"],["land",","],["l","iv"],["jÃ¸","n"],["it","ude"],["it","et,"],["it","ed"],["ings","d"],["in",","],["ig","er"],["ict","ion"],["ic","e,"],["i","ar"],["h","Ã¸y"],["h","ing"],["h","av"],["h","as"],["g","j"],["for","stÃ¥"],["f","old"],["f","ly"],["et","wor"],["et","her"],["et","e"],["est","ival"],["ent","e"],["ende","."],["em","at"],["ek","nolog"],["ed","s"],["du","ct"],["d","d"],["d","ag"],["che","s"],["c","y"],["be","hand"],["b","ot"],["b","it"],["b","ed"],["ate","ur"],["ate",","],["asjon","en"],["asjon",","],["as","se"],["arli","ament"],["ans","er"],["all","y,"],["age",","],["ab","bit"],["Ch","ristiania"],["8","5"],["7","6"],["4","0"],["1","),"],["0-","tallet"],[".","\""],["-","8"],["▁Ã¸st","lige"],["▁Ã¸konom","isk"],["▁Ã¥r","ene"],["▁Ãst","ens"],["▁Ãstens","jÃ¸"],["▁Â«","Oslo"],["▁word","s"],["▁wh","ether"],["▁w","id"],["▁vok","ste"],["▁v","Ã¦r"],["▁v","eg"],["▁utt","rykk"],["▁utf","ord"],["▁ut","b"],["▁utb","red"],["▁under","stand"],["▁ty","pe"],["▁tradition","s"],["▁to","wn"],["▁tilp","ass"],["▁til","l"],["▁temper","atur"],["▁teknolog","ien"],["▁te","ach"],["▁t","ried"],["▁t","olk"],["▁t","est"],["▁t","att"],["▁sÃ¥","k"],["▁sÃ¥k","alte"],["▁sy","mbol"],["▁supp","ort"],["▁stru","ktur"],["▁stre","kker"],["▁sted","et"],["▁st","Ã¸"],["▁spec","ific"],["▁sp","or"],["▁sp","iller"],["▁sound","s"],["▁song","s,"],["▁skog","s"],["▁sk","ole"],["▁sh","ip"],["▁sent","r"],["▁sel","skap"],["▁sec","ond"],["▁sam","funnet"],["▁s","iste"],["▁s","chol"],["▁s","ann"],["▁redus","ere"],["▁record","ings"],["▁re","is"],["▁re","c"],["▁rank","ed"],["▁r","ock,"],["▁r","ange"],["▁psy","ch"],["▁progra","ms"],["▁pro","vin"],["▁pro","vid"],["▁pro","dus"],["▁popul","Ã¦re"],["▁popul","Ã¦r"],["▁pl","ace"],["▁ph","ilos"],["▁part","ic"],["▁partic","ular"],["▁p","enge"],["▁origin","al"],["▁opp","rett"],["▁opp","mer"],["▁opp","fÃ¸rt"],["▁open","ed"],["▁omt","alt"],["▁omrÃ¥d","ene"],["▁om","giv"],["▁ne","igh"],["▁n","Ã¸y"],["▁n","ear"],["▁met","oder"],["▁mennes","ke"],["▁melod","y,"],["▁maskin","lÃ¦ring"],["▁marit","ime"],["▁m","ous"],["▁m","ight"],["▁lu","f"],["▁lin","es"],["▁le","ir"],["▁lag","et"],["▁l","ok"],["▁kre","ver"],["▁kl","ima"],["▁kar","ak"],["▁k","op"],["▁jazz",","],["▁j","ust"],["▁it","."],["▁instit","ution"],["▁inkluder","t"],["▁influ","ence"],["▁indust","ry"],["▁individual","s"],["▁improvis","ation"],["▁ikke","."],["▁i","ll"],["▁hjel","pe"],["▁histor","ie"],["▁hen","ne"],["▁hen","hold"],["▁he","ad"],["▁h","Ã¥nd"],["▁guitar",","],["▁gre","en"],["▁gj","el"],["▁gjel","der"],["▁gen","res"],["▁gen","r"],["▁g","anger"],["▁g","amm"],["▁fÃ¸r","st"],["▁forv","alt"],["▁forsk","ning"],["▁forsk","ere"],["▁form","id"],["▁ford","i"],["▁for","et"],["▁for","del"],["▁fol","low"],["▁finans","i"],["▁fest","ning"],["▁f","Ã¸re"],["▁f","ys"],["▁f","ac"],["▁examp","le"],["▁ex","h"],["▁exh","ib"],["▁enter","tain"],["▁entertain","ment"],["▁ens","emb"],["▁enkel","te"],["▁en","or"],["▁en","k"],["▁enk","elt"],["▁emp","has"],["▁elekt","ron"],["▁econom","ic"],["▁ear","ly"],["▁e","ither"],["▁dire","kte"],["▁digit","ale"],["▁defin","ition"],["▁de","v"],["▁de","ep"],["▁d","rum"],["▁d","rift"],["▁d","og"],["▁d","i"],["▁d","ann"],["▁count","r"],["▁cons","ist"],["▁concert","s"],["▁con","ne"],["▁char","ac"],["▁charac","ter"],["▁c","om"],["▁c","old"],["▁blu","es,"],["▁bl","ues"],["▁befolk","ning"],["▁bec","ome"],["▁b","Ã¸r"],["▁b","ook"],["▁ar","keolog"],["▁an","other"],["▁al","ter"],["▁al","lerede"],["▁aktiv","itet"],["▁accompan","iment"],["▁a","mo"],["▁amo","unt"],["▁a","kt"],["▁a","esthet"],["▁Wh","at"],["▁W","ay"],["▁Way","back"],["▁V","e"],["▁US","A"],["▁The","at"],["▁T-","ban"],["▁Stort","ings"],["▁S","Ã¸r"],["▁S","w"],["▁S","ol"],["▁S","ogn"],["▁S","h"],["▁S","ent"],["▁S","ag"],["▁R","Ã¸"],["▁R","es"],["▁O","pp"],["▁O","ne"],["▁Norway","'s"],["▁N","ot"],["▁N","es"],["▁Marid","al"],["▁Mach","ine."],["▁Ma","jor"],["▁M","in"],["▁M","ay"],["▁M","askin"],["▁L","Ã¸r"],["▁LÃ¸r","ensk"],["▁LÃ¸rensk","og"],["▁L","ys"],["▁Lys","aker"],["▁L","at"],["▁L","and"],["▁Kn","ut"],["▁KI-","gener"],["▁KI","â"],["▁KIâ",""],["▁Joh","an"],["▁How","ever,"],["▁Hanshaug","en"],["▁H","v"],["▁H","en"],["▁Gardermo","en"],["▁Fur","us"],["▁For","neb"],["▁Forneb","u"],["▁F","Ã¸r"],["▁E","ks"],["▁E","ast"],["▁E","6"],["▁D","er"],["▁D","a"],["▁Ch","at"],["▁C","up"],["▁C","omp"],["▁C","o"],["▁Bydel","en"],["▁Bry","n"],["▁BjÃ¸r","n"],["▁B","r"],["▁B","ild"],["▁B","I"],["▁Ark","ivert"],["▁Al","ph"],["▁Alph","a"],["▁Akers","elv"],["▁Afric","an"],["▁A","ge"],["▁A","I"],["▁8","2-"],["▁3","5"],["▁3","0"],["▁201","5"],["▁201","2"],["▁(","or"],["▁%","."],["▁\"","t"],["▁\"","elem"],["â","ll"],["â","1"],["Ã¥k","ing,"],["y","t"],["y","ld"],["vir","on"],["viron","ment"],["ve","ier"],["var","ter"],["v","itenskap"],["v","ist"],["v","est"],["v","end"],["v","annet"],["ut","ions"],["ut","h"],["um","p"],["ultur","al"],["ul","y"],["ud","."],["u","le"],["th","avn"],["te","or"],["t","att"],["stru","ktur"],["st","Ã¥r"],["sl","iv"],["sl","ett"],["skole",","],["s","vis"],["ron","e"],["ro","p"],["r","an"],["pr","is"],["pr","et"],["p","os"],["p","or"],["ov","en"],["out","h"],["ot","yp"],["ord","ningen"],["or","ke"],["on","ger"],["on","al"],["om","s"],["ol","it"],["ol","f"],["ok","us"],["ograph","y"],["nom","usicology"],["ning","er."],["nd","re"],["n","er."],["mil","jÃ¸"],["mb","ient"],["m","ost"],["lÃ¸","s"],["ly",","],["lig","ere"],["led","ge"],["land","s"],["l","u"],["l","ik"],["k","jÃ¸r"],["ities",","],["itet","en"],["itekt","ur"],["it","te"],["it","iv"],["ir","s"],["ip","lin"],["in","strument"],["im","ens"],["il","te"],["il","er"],["ik","var"],["ik","ke"],["if","e"],["ie","w"],["ib","le"],["i",":"],["h","ar"],["har","mon"],["h","ag"],["g","ere"],["g","ende"],["fart","Ã¸y"],["f","yl"],["ert","ug"],["ering","."],["er","en"],["ent","al"],["en","ger"],["em","ent"],["elt","et"],["els","ene"],["ele","fon"],["el","lo"],["el",","],["ek","ter,"],["ed","er"],["der","ing"],["ce","iv"],["c","ial"],["bl","ad"],["b","our"],["ativ","t"],["ation","s,"],["ated","ral"],["ant","ikvar"],["ange","ment"],["an","ter"],["am","mer"],["am","il"],["ak","s"],["ain","ed"],["abl","ished"],["ab","rikk"],["E","."],["6","6"],["2","3"],["2","),"],["00","."],["0","s"],["0","6"],["/","S"],["..","."],["-","t"],["-","k"],["-","h"],["-","f"],["-","3"],["▁â","I"],["▁â",""],["▁Ã¸k","te"],["▁Â«","n"],["▁writ","er"],["▁world","'s"],["▁with","out"],["▁w","ood"],["▁vo","ice"],["▁vis","st"],["▁vis","er"],["▁virkelig","het"],["▁vi","ol"],["▁var","ious"],["▁v","Ã¥"],["▁v","ur"],["▁v","al"],["▁us","ually"],["▁un","til"],["▁ub","em"],["▁tro","verd"],["▁to","ok"],["▁to","o"],["▁to","get"],["▁timb","re,"],["▁tilgjeng","elig"],["▁tid","."],["▁texture",","],["▁te","or"],["▁ta","ught"],["▁t","rafikk"],["▁t","j"],["▁t","el"],["▁t","al"],["▁surround","ing"],["▁stÃ¸","tte"],["▁styl","es."],["▁stud","ents"],["▁start","et"],["▁stand","ard"],["▁st","emm"],["▁spes","ielt"],["▁spec","ial"],["▁sm","art"],["▁sl","ike"],["▁skr","ive"],["▁skap","er"],["▁sk","ues"],["▁skues","p"],["▁sk","je"],["▁sk","ille"],["▁sk","ill"],["▁si","x"],["▁sh","ould"],["▁sh","ift"],["▁se","par"],["▁sc","ulpt"],["▁sc","or"],["▁sc","ience"],["▁sann","tid"],["▁samt","alerobot"],["▁sam","m"],["▁sam","let"],["▁s","Ã¸rs"],["▁s","w"],["▁s","ikker"],["▁s","eks"],["▁s","at"],["▁s","anns"],["▁sanns","yn"],["▁result","at"],["▁res","earch"],["▁re","cent"],["▁rad","io"],["▁r","ight"],["▁r","ather"],["▁qu","est"],["▁prote","in"],["▁prop","ag"],["▁propag","and"],["▁progra","m"],["▁prakt","isk"],["▁pr","om"],["▁pr","is"],["▁polit","ic"],["▁politic","ian"],["▁pian","o,"],["▁pian","o"],["▁ph","ras"],["▁perform","er"],["▁perform","an"],["▁performan","ces"],["▁part","icip"],["▁p","ict"],["▁p","ers"],["▁orche","stra"],["▁oppg","av"],["▁oppd","ag"],["▁opp","hav"],["▁on","ce"],["▁old","est"],["▁obj","ekter"],["▁o","th"],["▁o","ss"],["▁nÃ¸y","akt"],["▁nÃ¦r","ings"],["▁not","hing"],["▁not","ation,"],["▁nor","sk"],["▁nor","m"],["▁neigh","bour"],["▁ne","ver"],["▁n","esten"],["▁n","eg"],["▁mÃ¥","te"],["▁musikk","ens"],["▁musikk","."],["▁model","l"],["▁milit","Ã¦r"],["▁men","n"],["▁maskin","er"],["▁m","ur"],["▁m","em"],["▁m","ass"],["▁lÃ¸","se"],["▁lysfÃ¸l","som"],["▁luf","thavn"],["▁loc","al"],["▁lin","ks"],["▁le","ad"],["▁la","ste"],["▁l","ille"],["▁l","at"],["▁l","an"],["▁l","ab"],["▁kunst","art"],["▁kommun","ale"],["▁kom","bin"],["▁know","ledge"],["▁k","und"],["▁k","raft"],["▁k","lass"],["▁k","jen"],["▁k","ategor"],["▁journal","ist"],["▁j","ord"],["▁j","ob"],["▁j","ern"],["▁inv","ol"],["▁inv","est"],["▁inter","pret"],["▁intelligens","."],["▁innvandr","ere"],["▁indust","r"],["▁ind","re"],["▁increas","ed"],["▁in","s"],["▁in","neb"],["▁hv","il"],["▁hovedk","varter"],["▁hav","ne"],["▁har","d"],["▁hand","ler"],["▁halv","part"],["▁halvpart","en"],["▁h","Ã¸r"],["▁h","und"],["▁h","ill"],["▁h","ertug"],["▁h","ere"],["▁gre","ater"],["▁go","ing"],["▁gjen","re"],["▁gener","al"],["▁g","ikk"],["▁g","et"],["▁g","e"],["▁g","aller"],["▁fÃ¸l","ger"],["▁fun","ction"],["▁frem","tid"],["▁found","ed"],["▁fotograf","iske"],["▁forskj","ellig"],["▁forskjellig","e"],["▁forsk","es"],["▁formid","le"],["▁form","ed"],["▁forbed","re"],["▁folk","et"],["▁fig","ur"],["▁fell","es"],["▁fe","atur"],["▁f","ull"],["▁f","ul"],["▁f","oto"],["▁f","ot"],["▁f","oot"],["▁f","okus"],["▁f","ive"],["▁f","av"],["▁f","art"],["▁f","akt"],["▁f","a"],["▁exp","and"],["▁exhib","ition"],["▁ex","t"],["▁et","c"],["▁est","ablished"],["▁en","este"],["▁emp","lo"],["▁elect","ron"],["▁electron","ic"],["▁eld","re"],["▁eks","per"],["▁e","k"],["▁e","ight"],["▁e","d"],["▁e","ast"],["▁e","as"],["▁dynam","ics,"],["▁down",","],["▁do","ub"],["▁do","es"],["▁distin","ct"],["▁det","er"],["▁design","ed"],["▁describ","ed"],["▁des","ig"],["▁desig","net"],["▁der","med"],["▁del","es"],["▁dek","ker"],["▁d","ur"],["▁d","isk"],["▁d","anske"],["▁cre","ating"],["▁cre","ated"],["▁cons","um"],["▁con","stru"],["▁con","duct"],["▁compan","ies"],["▁commun","ity"],["▁clo","s"],["▁class","ification"],["▁chang","es"],["▁c","or"],["▁c","he"],["▁c","eremon"],["▁c","ategor"],["▁c","ar"],["▁c","a"],["▁byg","ger"],["▁by","s"],["▁by","en,"],["▁by","brann"],["▁by","."],["▁bruk","te"],["▁bis","p"],["▁bild","et"],["▁bild","ene"],["▁betyd","ningen"],["▁besk","rev"],["▁beh","ind"],["▁beg","rens"],["▁beg","in"],["▁beg","ge"],["▁befor","e"],["▁befolk","ningen"],["▁b","Ã¸ker"],["▁b","ere"],["▁bere","g"],["▁b","ank"],["▁auth","or"],["▁aut","onom"],["▁aud","ience"],["▁art","ik"],["▁artik","ler"],["▁arranger","t"],["▁arr","angement"],["▁archite","ct"],["▁arbeid","er"],["▁am","ong"],["▁am","ateur"],["▁add","ing"],["▁activ","ity"],["▁act","ress"],["▁a","mer"],["▁amer","ik"],["▁a","im"],["▁a","ff"],["▁Y","ou"],["▁You","T"],["▁YouT","u"],["▁YouTu","be"],["▁W","omen"],["▁W","ik"],["▁VÃ¥lereng","a"],["▁Ut","vik"],["▁Univers","itetet"],["▁Torvald",","],["▁T","Ã¸y"],["▁Stat","ens"],["▁St","ud"],["▁St","ad"],["▁Senter","et"],["▁Sam","tidig"],["▁S","port"],["▁S","j"],["▁S","in"],["▁S","im"],["▁S","elv"],["▁S","and"],["▁Re","fer"],["▁R","o"],["▁R","ep"],["▁Port","rett"],["▁Pol","ice"],["▁Olymp","ic"],["▁O","p"],["▁Op","slo"],["▁O","ld"],["▁Norge","."],["▁Nordstrand",","],["▁Nor","th"],["▁Nor","a."],["▁Nor","a"],["▁Nasjon","al"],["▁N","i"],["▁N","avnet"],["▁N","ation"],["▁N","T"],["▁Mid","dle"],["▁Maskin","lÃ¦ring"],["▁Maridal","sv"],["▁Maridalsv","annet"],["▁Mar","it"],["▁M","ort"],["▁M","ark"],["▁L","ille"],["▁Kvadratur","en"],["▁K","rist"],["▁J","uly"],["▁J","azz"],["▁J","ac"],["▁Jac","ob"],["▁Indones","ian"],["▁In","n"],["▁Imp","rovis"],["▁H","va"],["▁Furus","et"],["▁Folke","mus"],["▁F","olk"],["▁F","l"],["▁F","il"],["▁Ed","vard"],["▁E","ner"],["▁E","g"],["▁E","U"],["▁De","ep"],["▁D","em"],["▁Christiania","."],["▁By","ens"],["▁By","en"],["▁Bl","ack"],["▁B","eet"],["▁Beet","h"],["▁B","ank"],["▁Ar","beid"],["▁Ak","er,"],["▁Ac","cording"],["▁Ac","adem"],["▁A","fter"],["▁====","="],["▁21","st"],["▁202","3"],["▁201","3"],["▁200","7"],["▁2","8"],["▁2","4"],["▁.",".."],["▁(","t"],["▁(","p"],["▁\"","h"],["Ã¸y","et"],["Ã¸y","a"],["Ã¸n","t"],["Ã¸","ve"],["Ã¥r","s"],["Ã¥","let"],["Ã","³"],["z","y"],["ystem","er"],["ys","sels"],["yp","t"],["x","im"],["vin","del"],["val","g"],["v","ol"],["ut","es"],["ust","r"],["uss","ion"],["ul","a"],["u","ell"],["u","e,"],["te","ment"],["t","et"],["st","."],["spe","c"],["sn","itt"],["sl","Ã³"],["ry","t"],["ry","gg"],["ron","er"],["ro",","],["rimin","al"],["rel","ated"],["r","ing,"],["park","en"]],"note":"Byte-level BPE, 4000 merges, trained on: Lewis Carroll, \"Alice's Adventures in Wonderland\" (Project Gutenberg eBook #11, public domain); Henrik Ibsen, \"Et dukkehjem\" Act One (Norwegian Wikisource, public domain); and English- and Norwegian-language Wikipedia extracts for the articles Oslo, Music, Photography, Artificial intelligence, Norway, University of Oslo, Painting, Film, Language, Computer (en.wikipedia.org) and Oslo, Musikk, Fotografi, Kunstig intelligens, Norge, Universitetet i Oslo, Maleri, Film, Språk, Datamaskin (no.wikipedia.org), text available under CC-BY-SA 4.0, https://creativecommons.org/licenses/by-sa/4.0/. Word-start marker: U+2581 LOWER ONE EIGHTH BLOCK ('▁')."}